0.082243204,-0.23720548,0.18731543,-0.21424684,0.09301922,-0.124555014,0.18360361,0.18523328,0.10734628,0.07187098,0.21784882,0.01582383,-0.18922563,0.08766529,0.146607,-0.23208117,-0.09327777,-0.044100832,-0.0019984115,0.14048804,-0.08326298,-0.14168972,0.13323304,-0.14210647,-0.1042501,0.2306177,-0.20673862,-0.22308584,0.04040241,0.14832841
0.17952442,0.16478604,0.18530174,-0.17517647,-0.02012212,0.20962982,-0.020709267,-0.0855655,-0.05930794,0.015187476,0.25048304,0.13565153,0.16008961,-0.047087103,0.07664888,-0.21010737,-0.05277933,0.16943115,-0.20421492,-0.12489658,0.112181336,-0.06925201,-0.13178268,-0.16182338,0.23699357,-0.13195994,-0.23255022,-0.12896377,0.009939388,-0.14084005
0.13280311,0.06751733,-0.006193963,0.22601539,0.16553798,-0.19953239,0.13170865,-0.035423547,0.21536091,-0.093515724,0.22826892,0.008085055,0.09620178,-0.18264222,-0.0067818277,-0.21949024,0.038353994,-0.21638758,-0.16826017,-0.20102549,-0.19065435,0.071366854,-0.15278228,-0.027327849,0.0673621,0.2615321,-0.062669896,0.016600728,-0.22487427,-0.20755596
0.1503383,-0.16851239,0.035397157,-0.073542625,0.12363783,0.11276288,-0.07154535,-0.210364,0.27396026,0.1266322,-0.21916348,-0.047747888,-0.09236685,-0.09532285,-0.10264098,0.16136208,-0.1999458,-0.26143834,0.21040553,0.23879696,0.072896495,-0.15085492,-0.20164062,0.013123112,0.27655974,0.17306007,0.11321651,-0.2049358,-0.2306989,-0.040490497
-0.12893547,-0.0042108423,0.09723506,-0.16173305,0.12990272,0.038701788,0.27416238,0.13556026,0.18438578,0.05505028,0.2467214,-0.0070282235,0.16839929,0.114589155,-0.2595929,-0.14973366,-0.04125242,-0.0738893,-0.1301923,0.21094069,0.009199348,-0.13981527,-0.13852525,-0.23402975,0.1461551,0.17466432,-0.20176436,0.10300563,-0.018235715,0.05918344
0.04141005,0.091333464,-0.080796994,0.054071903,-0.10763382,0.26079062,-0.120811805,-0.1325262,-0.19502121,0.15589614,0.006646293,0.052849054,0.2415607,-0.19831586,-0.06968978,-0.06413282,0.24080148,-0.26531178,-0.001032393,-0.17310339,0.21757294,0.13461731,-0.20268598,-0.06884744,-0.05980575,-0.052088838,-0.23252913,-0.2199205,-0.05440894,0.042871192
0.13487972,-0.013285859,-0.07631147,0.10485422,-0.0362506,-0.1858397,-0.23127793,0.15772323,0.11517843,-0.104499936,0.059839305,-0.15884429,0.10305636,0.018922562,0.05434452,-0.09216259,-0.04892066,0.024225714,0.0073472327,0.010681978,0.19404256,-0.16298237,0.15270042,-0.1327675,-0.12542623,-0.1125804,-0.18814853,-0.15958689,0.21708716,0.10382296
0.007849901,-0.103186324,0.053951677,-0.05117383,0.07442241,0.15772565,-0.22766973,0.047094192,0.037899245,-0.14148434,-0.23612113,0.21335325,0.09253116,0.2590018,0.026379772,0.13599372,-0.1585201,0.2070065,0.15585423,-0.10949875,0.24856359,-0.0735858,-0.113505505,0.22220108,0.17994218,0.11866375,-0.080766074,-0.23106994,0.25285715,0.036460567
0.19184777,0.17318992,0.1278283,-0.14610296,0.058886636,-0.06913525,0.05244371,-0.22235765,0.10919547,0.09328986,-0.034238614,0.07810099,0.07758127,-0.06788335,-0.012507707,0.13003686,-0.15766144,-0.09404081,0.17866184,0.2634732,0.15485604,-0.03831693,0.24419177,-0.20618646,0.12175554,0.021724219,0.24982338,0.14216353,0.12884523,-0.0973311
-0.092233054,-0.08043429,-0.031449143,0.16369912,-0.082757145,-0.058475543,0.13347034,0.07107274,0.1663251,-0.1471311,-0.24448717,0.086946584,0.17122768,-0.1812436,0.105042845,0.17402595,0.22717059,-0.22057769,-0.07451842,0.011929684,-0.12843783,0.067415394,0.1560091,0.25927836,0.19005814,-0.012965751,0.11561273,-0.15843593,-0.058389768,0.20610279
0.13440971,0.20418516,0.0014937761,0.22700386,0.06606754,0.108610086,0.13342033,0.16817439,0.15840845,0.19354421,-0.2039561,-0.18233849,-0.15593193,-0.1541481,0.22852406,0.09816297,-0.057013918,0.20799032,-0.12001062,-0.21772355,0.0787671,-0.17532635,-0.14138639,-0.18811758,0.09123729,0.253042,-0.23427065,0.16615072,-0.108760424,-0.04676744
-0.10673519,-0.15151057,0.1635398,0.044161413,0.24079931,0.13299489,0.22713739,0.09599363,0.13660668,0.051385112,0.207678,-0.15387177,0.22233649,0.022444362,0.079699434,-0.066500284,0.18087552,-0.04306407,0.20078947,-0.0357497,0.05163391,0.054003626,0.21600673,-0.13015725,-0.15504077,-0.16538762,0.22461605,-0.22371209,-0.07263329,0.091137744
-0.25097686,0.082110874,-0.19862704,0.19219074,0.03483057,0.12062342,-0.17299111,0.09246681,0.00781488,0.021094644,0.044854466,0.17085426,-0.25036734,0.22253397,-0.19577345,0.049907476,-0.072514445,0.25418705,0.19155677,0.243076,-0.23192042,0.13738012,0.00026563177,-0.26492196,-0.20862563,0.24383025,-0.015692081,-0.08948916,-0.047353335,0.18447788
-0.15138385,0.040448926,0.013769736,-0.2188341,-0.008364128,-0.19648336,0.24358186,0.041621078,0.14182591,0.21082278,-0.0004458399,0.14973632,-0.2268905,-0.008680054,-0.20531537,0.012702205,0.2673971,-0.0832821,-0.047639813,0.19969414,0.19479753,0.18692517,0.06996016,-0.14383666,0.13979532,0.06456884,-0.123779766,-0.23395437,0.16900276,-0.114746384
0.16521229,-0.030715471,-0.077295795,-0.07573222,0.11929891,0.17195657,-0.11753536,-0.15206593,-0.12384306,-0.18632638,0.034530267,-0.23752785,-0.06606521,-0.24003804,0.20339023,-0.11876643,0.17653279,0.14307947,-0.13277428,-0.22640228,-0.13245088,-0.072877556,0.21407525,-0.015654238,-0.1976137,-0.108552076,0.21225952,-0.07954456,0.23241378,0.05155572
-0.13318606,0.26700565,0.006927593,-0.19127156,-0.21407,-0.1632415,0.038817838,-0.08228906,-0.07254231,0.23261032,-0.09629263,0.16106309,-0.08891725,-0.22289573,-0.060482487,0.17289415,-0.23002243,0.101565935,0.22064725,0.098275624,0.23386444,-0.0794365,-0.01793964,-0.07933737,-0.21215348,0.015464263,-0.13460712,0.17974593,-0.1277484,0.25702733
-0.14492403,0.090489015,-0.008834398,0.079835296,0.1097606,-0.03130415,-0.062362712,0.23134091,-0.04494876,-0.08950986,0.0011280582,-0.12702349,-0.14766027,0.15519688,-0.22738653,-0.15563433,0.042369816,0.038522728,-0.04079363,0.112010874,-0.254259,-0.24579042,-0.20027053,0.1428941,0.1768654,0.2672271,-0.12030621,-0.24767873,0.032769304,-0.16463262
0.10027418,-0.053139683,-0.19295394,0.014903645,0.11453325,0.02249179,-0.089981645,0.037306156,0.12638547,-0.10953878,-0.19150403,-0.1898864,0.15019767,-0.22053216,0.06111521,-0.022337776,-0.08802566,-0.042491578,-0.23607399,0.16891095,-0.079881474,0.04553273,-0.016610362,0.121897556,0.19080886,-0.035421,0.15068436,-0.08888274,-0.20286503,-0.048743133
-0.1525657,-0.06968484,0.07954814,-0.17097847,0.18791139,0.12551506,0.07962302,-0.07116623,-0.053849347,-0.2738268,-0.22656126,-0.042153012,0.16989061,-0.17520012,0.22346838,-0.21409877,0.16513573,-0.13529314,-0.16756684,0.20905931,0.080945544,0.16585056,-0.07204262,0.18143253,0.010841657,-0.20264964,-0.19401436,-0.09352589,-0.18088713,-0.003326391
0.06771472,-0.100250304,0.03719636,-0.019974655,-0.22129837,-0.23642318,-0.15390435,0.1542629,-0.06640676,-0.11791284,0.050537936,-0.22898017,-0.2621613,-0.055769444,-0.08435667,0.105612,-0.21335965,-0.05609903,0.05629564,-0.17731844,-0.24781545,0.0063692,0.07698948,-0.12919998,0.27333304,-0.17172033,0.13946022,-0.05187445,0.10043872,0.18185979
-0.18686369,0.015542537,-0.103355505,0.0848754,-0.08185048,-0.1546615,0.08695432,0.01915397,0.16109467,-0.23200595,-0.2059933,-0.22832248,0.09821131,-0.006919295,0.08744169,-0.11961949,0.048898045,-0.014762722,0.07016067,-0.03831213,-0.04762516,0.080109164,-0.093265295,0.19311668,-0.21507224,0.0883259,-0.2573261,-0.16457964,-0.1683341,-0.147774
-0.121084884,-0.19242789,0.14176375,-0.12112278,0.033759475,-0.22324795,-0.08697012,0.024440605,0.0066152494,-0.20080818,-0.24602346,0.12811817,-0.15347046,-0.11331856,0.11578754,-0.02501698,-0.11382709,-0.085563414,0.20732015,-0.24011098,-0.10651654,-0.010396861,-0.08888936,-0.085240364,0.21881267,0.15810922,-0.09666784,-0.16936053,0.16311711,0.033934735
-0.26326904,0.1934407,-0.19992988,0.17555425,-0.25107798,0.1909158,0.20537247,0.07413434,0.20978865,-0.19888486,0.16207182,-0.02785106,-0.06147298,-0.18947923,0.16209593,-0.09252223,-0.22791094,-0.22899835,-0.030928494,-0.07215962,-0.009236325,0.21365818,-0.06385593,0.1669226,0.23739332,-0.077931136,0.007353948,0.068174005,-0.18154263,-0.21650082
-0.14641155,0.19918366,0.056126427,-0.19617122,0.082726106,0.06329903,-0.22938834,-0.09734878,-0.12605579,0.1692092,0.030540802,0.16337672,-0.11246524,-0.1269211,-0.028435735,0.15493351,-0.23271568,0.20435306,0.095800385,-0.0012973584,-0.19715624,0.020118147,0.25213715,-0.19141157,0.11893774,-0.20828843,0.14321297,0.20947689,0.10577251,-0.108115055
0.06319846,-0.07529581,0.071066804,0.05873087,0.019621396,0.12695591,-0.19952376,0.13800275,-0.2120881,0.11583359,0.013641038,-0.13355371,0.15622972,-0.19708754,-0.10252927,0.16647962,0.07153403,0.080158755,-0.015407345,-0.13323805,-0.1304206,-0.10962058,-0.104361184,0.13988574,0.11487625,-0.09869182,-0.18043235,-0.115371965,0.019904273,0.09673212
-0.18741769,0.12248192,-0.20796067,0.21581581,0.13108946,-0.1111367,-0.18352821,0.15018663,0.017923249,0.015303135,0.11455784,-0.1106998,0.23307528,-0.21739845,-0.13689715,0.15280509,-0.22862974,-0.15342738,-0.031104293,-0.11733069,-0.062205177,-0.15811038,-0.07303919,0.056182813,0.23870434,0.14745569,0.19525596,0.06843542,0.12455336,0.14286332
0.08712186,-0.17668264,-0.027665745,-0.21831705,0.14272778,-0.14525467,-0.20623653,0.1460762,-0.12916984,-0.123441406,-0.15505369,-0.058980286,-0.23812096,-0.04770565,0.16742764,-0.01862645,0.04484763,-0.1143083,-0.24063943,0.16530591,-0.045817863,-0.124507196,0.044601254,-0.238385,0.12731886,0.24203123,-0.23729831,0.23250376,-0.061888997,-0.24902952
-0.11588389,-0.061308824,0.002760977,0.047880843,-0.18214902,-0.18177544,-0.21526591,0.1615739,-0.19654374,-0.20627657,-0.07388014,0.2312533,-0.16996755,-0.06987035,0.047445286,0.18152693,-0.22710477,0.17358729,0.20340174,-0.24220464,0.013794813,-0.008916104,0.14527318,-0.06882518,0.21651034,0.034981128,-0.09870675,-0.11495476,0.05617588,-0.08973524
0.23270781,-0.08027656,-0.13353653,0.013202026,0.18497154,-0.005523908,0.0231645,0.074216716,0.007889781,0.12465623,0.10198011,-0.22334884,-0.047405183,0.040743414,0.033521835,0.21185182,0.11269232,-0.19321841,0.095815524,0.060930323,-0.07901572,-0.041626297,-0.15886734,0.11603257,-0.009076027,-0.14899725,0.0861266,-0.1624928,-0.2568506,0.012589186
-0.021174876,-0.001479045,0.22200586,-0.16981235,0.23989046,0.07447657,-0.10743535,-0.13275036,0.09056214,-0.040536016,0.17851062,0.1803362,-0.21461356,0.032154143,-0.14035618,0.21748592,0.020978827,-0.060498238,0.23745875,-0.23109277,-0.088222586,-0.15849519,-0.09874551,0.238777,-0.063323885,-0.16844164,-0.02364481,0.14955778,-0.0177922,0.117523566
-0.1714402,-0.11708035,-0.051107775,-0.091112226,0.13630383,0.18078211,0.23933458,0.15230078,0.06416128,0.06852073,0.028597847,0.21065338,-0.12642552,0.24487355,-0.24031238,0.21461019,0.09615726,0.22541578,-0.21269168,-0.054581895,0.12235963,-0.16374628,-0.0751113,0.0017897899,-0.045831338,0.039634425,-0.06497753,-0.16713984,0.033549823,0.02347475
-0.26581118,0.17212297,0.24456847,-0.18575996,0.022004405,-0.07970335,0.041686773,0.2603603,0.051478848,0.17487787,0.040070433,-0.11189673,0.11662853,0.10006994,0.04248499,0.212687,-0.18911314,0.0791841,0.1656691,-0.14921667,-0.07780754,0.07228162,0.045457575,0.1691606,-0.19634639,0.21690123,0.10632422,-0.033854388,0.10401867,0.051234413
0.26503628,-0.18648668,-0.22739144,0.075026646,0.1259715,0.007969436,-0.07180736,0.14982718,0.16325937,0.19457245,0.119698025,-0.21928114,-0.032389,0.24429742,0.09605435,0.021302238,0.033343825,-0.003447548,0.2122668,0.22688773,0.23814172,0.21304761,-0.10368659,-0.20548645,0.10350026,0.06797945,-0.2561551,-0.14111516,-0.17981692,-0.16457814
0.11982353,0.25273928,0.07031017,-0.21321188,-0.21741334,-0.08862848,-0.19046271,-0.08586483,0.10288586,-0.14027172,-0.0014905755,-0.07847847,0.10633085,0.2466054,0.015680961,0.018341633,0.11413805,0.10130098,0.1036507,0.20828739,-0.014389633,-0.06042718,-0.17195216,-0.21600501,-0.03180108,-0.15584876,0.026426315,-0.25049534,-0.05612703,-0.14358966
-0.24406217,0.014640759,0.09342323,-0.060772836,0.01998326,0.041687194,0.043955874,-0.04881487,-0.2698459,0.15974534,0.08106202,0.033053957,0.0443823,0.25980332,0.16947001,-0.02079769,-0.1587114,-0.123625144,-0.21973377,-0.1294089,-0.18544248,0.21399175,-0.1854878,0.0046906783,0.05129589,0.062467154,-0.1779604,-0.024414433,-0.05203793,-0.11650144
-0.00031587205,0.23081349,0.054498553,0.14792396,0.17182152,-0.005167871,-0.067518584,-0.07423339,-0.20446482,0.2720239,0.034714326,-0.10289877,0.15327604,0.00068724033,0.08428532,0.17833258,0.08260658,-0.08325806,-0.06455,0.06359779,0.025072632,0.04055292,-0.24357265,-0.17893003,-0.1199267,-0.22387177,0.24041463,0.0827244,0.22530158,-0.23459467
-0.009411616,-0.15259334,0.18864289,0.22154224,-0.21936536,-0.18799345,-0.09193268,0.20359725,0.026441038,0.0687762,0.10900099,-0.17760605,-0.20061105,-0.14311509,-0.22369428,-0.10163566,-0.10322018,0.1659009,-0.09522495,-0.20211653,-0.040461995,-0.03326573,-0.12329344,0.18764038,-0.008230432,0.19144721,0.15955813,0.09729725,-0.054648332,0.0141226
-0.20606115,-0.020739436,-0.1111544,0.2500507,-0.094487384,0.2533682,0.060690112,0.18898404,0.06485129,-0.065083355,-0.070624106,0.13808128,0.18634896,-0.12943235,0.18521667,-0.15387465,0.15954505,-0.058345914,-0.012646191,-0.017895747,0.21285175,0.1426027,-0.14408201,0.24227391,0.114865236,0.05655389,-0.07870762,-0.19913355,0.06719031,0.06723158
0.20524815,0.0992193,-0.042266373,-0.14687029,0.20483975,0.22936168,0.23702508,-0.0705042,-0.01117934,0.18209578,0.24345349,-0.086731695,0.12497328,-0.09173712,0.07936488,0.027778529,0.0766403,-0.08070987,-0.15072073,-0.1378788,-0.046916753,-0.11343627,-0.24207686,-0.028158672,-0.21096982,-0.13475746,-0.08265164,0.06729412,0.03015369,0.15366717
-0.26005805,0.07180151,0.11156201,0.22943895,0.053122617,0.047686663,0.14695618,-0.011246056,0.19422574,0.25091434,0.2346569,-0.0026542572,-0.15570006,-0.012233367,-0.232546,-0.19324273,-0.06898276,-0.06406839,-0.12828527,0.2724829,0.24899389,0.1993482,0.027665775,-0.17152065,-0.12260968,0.021190949,0.26294357,0.1216776,0.040137835,-0.0023205862
0.24224225,0.093480505,-0.12896428,0.18982266,0.10888046,0.010773728,0.07287857,0.24726725,0.18586224,0.22152248,-0.19669722,0.056178477,-0.13070156,0.12162909,-0.035349175,-0.06407711,-0.07012873,0.13034506,0.07579837,-0.19720228,-0.07926424,0.1060877,-0.21248199,-0.11523877,-0.18338875,0.033214923,0.13308303,0.1655713,0.20448905,0.20390669
-0.23309918,0.13128501,0.12239607,0.16599788,0.24051112,0.01718417,-0.12951486,-0.1581394,-0.09307585,-0.23690723,-0.1702266,-0.077585004,0.21132985,-0.0717883,0.13793945,0.13498278,0.16416639,-0.2316795,-0.18861164,-0.17273799,-0.017642109,-0.0410556,-0.028939521,-0.015320707,-0.108311296,0.18274048,0.14685391,-0.0470844,0.076368384,-0.115540735
-0.068048194,-0.028648527,-0.08648958,-0.21003447,0.052120898,-0.093884744,-0.011041406,-0.08056016,-0.13593991,0.17264086,0.03241829,-0.0009871456,0.14968109,0.25756523,-0.24986514,0.11872776,-0.06772719,-0.111946024,0.14301302,0.016982622,-0.024945129,0.106273465,-0.13606812,-0.16119336,0.08462001,-0.025264537,0.26376766,-0.22548768,-0.088698976,0.14177942
0.08784858,-0.1511445,0.108360134,0.25402123,0.20455241,-0.21678247,0.19044259,-0.15980028,0.22008702,-0.1864174,0.2169135,0.24816291,0.18148091,0.2282967,0.23420484,-0.040650886,-0.09721881,0.06468778,0.21514711,0.05408936,0.19852675,0.071993835,0.23918875,-0.16276678,0.11416197,-0.22474472,0.19676787,0.050440025,0.117618255,0.08168924
-0.037308406,-0.07137275,-0.08269883,0.095256,0.12903628,0.12333252,-0.19501351,-0.20571014,-0.029299546,0.22195466,-0.22974399,-0.22319268,-0.025094172,-0.08207205,0.020769067,-0.23404983,0.04258181,-0.11340508,0.24901667,-0.19122022,-0.09139938,0.1614732,0.22071247,0.12692672,0.10881901,0.22937623,-0.106409185,0.18594892,0.05406602,0.009092444
-0.18945587,0.20776182,-0.12194168,-0.19030453,0.14096276,0.05560058,-0.10074137,-0.06403154,0.19661811,-0.17969845,0.048724826,-0.18390174,-0.20804772,-0.194301,-0.12516168,0.10573206,-0.12062561,-0.049826887,0.11957756,0.13643627,0.22269717,-0.14555511,0.13540137,-0.25150937,-0.18585333,0.050459452,0.008593066,-0.15925151,-0.027636832,0.045983933
-0.2592326,0.15155542,-0.19483432,-0.16940302,-0.234987,-0.03294156,-0.014978408,-0.07550114,-0.0634598,0.16560535,0.14246829,0.11633748,0.058117416,0.062874,0.042627867,0.24438196,0.23319614,-0.22690424,0.06432735,0.13551891,0.23256901,0.19179669,0.18237618,-0.08091958,-0.07933014,0.11641509,0.051658567,0.032511584,0.14678021,-0.022541357
-0.13802727,0.18594657,-0.1028651,-0.047011603,0.05891118,0.07486014,0.06368075,0.24104446,0.12378965,-0.2335745,0.22841737,0.11034119,0.20693758,-0.12496421,-0.16801202,-0.1439447,-0.07810293,-0.22650643,-0.1935027,0.12607983,-0.032441843,0.2047437,-0.20433663,-0.15697008,-0.057193622,0.22119963,-0.07883911,-0.00024727156,-0.045098837,-0.06146756
0.15472156,0.086225756,0.042416602,0.18347956,0.034369964,-0.15788455,0.16941832,0.039160896,0.1301562,-0.18971562,0.19378105,-0.027578726,0.22486866,0.072964974,0.059067328,0.23154493,0.2698242,0.1356152,0.058669887,0.271357,-0.23141773,-0.15525915,-0.2359567,0.12415704,-0.21577476,-0.11488179,0.25040206,0.023513025,-0.07115158,-0.22014943
0.09422178,-0.17637959,-0.16678835,0.2293277,0.08185468,-0.028733231,-0.1316116,0.04753132,-0.071212485,0.07095842,0.10713697,0.010672922,0.23145904,-0.0847283,0.049887184,-0.07701579,-0.109536566,-0.17050214,0.014209803,0.15834372,0.087926626,0.006116359,0.16317421,-0.09229317,-0.13698296,0.16032548,0.13924699,-0.15329023,0.10694923,-0.054313645
-0.03395744,0.20804082,0.24303016,-0.16741897,0.076121405,-0.02254296,0.2525994,0.11457305,0.05245949,-0.09472625,-0.24240538,0.0720005,0.0045913933,-0.040683735,0.15983436,-0.0649664,-0.05791546,-0.09792237,0.16547067,0.09463413,0.20157124,-0.101114064,0.09481606,-0.07719385,0.0046435194,-0.1808962,0.027397797,-0.0060754484,-0.20489074,-0.030566892
0.19271977,0.18210775,-0.22123207,-0.11839662,0.113305636,-0.05800501,-0.11554252,0.10932111,-0.15108922,-0.20616737,-0.14056519,0.22119808,0.20804231,-0.021607889,0.03617907,0.0052606375,-0.17125353,-0.13625632,-0.0032005534,0.05988386,-0.2165402,0.26018977,-0.22162385,-0.050402243,-0.072217196,0.2526464,-0.25418848,0.23691465,0.07461051,-0.028475005
0.10109893,0.14552832,-0.11584662,0.084754996,-0.16998853,0.20315109,0.073568985,-0.09549774,0.05396864,0.2692843,0.13732274,-0.23706289,0.21521372,0.23699415,-0.09597842,0.2097082,0.17900535,-0.118837714,0.23392822,0.057571746,0.0602986,0.17880341,-0.072249286,0.10659523,-0.25601292,0.10286815,-0.14094213,0.0528945,0.013357021,0.1448783
-0.01894393,-0.040845104,0.26402807,0.035513617,0.23997322,0.18263347,-0.016326211,0.03942826,0.20147678,0.21846296,-0.061089784,0.14090961,-0.23311976,-0.19606146,-0.12591253,-0.19240987,-0.17641486,0.13552395,-0.22784117,-0.031135667,-0.11097388,0.2576143,0.22977832,0.058604386,0.11357297,0.19955473,0.1917383,-0.21158227,0.22936969,0.25679794
0.16187277,-0.16097683,-0.021964446,-0.07608215,0.08690759,0.08041215,-0.14958617,0.19112274,0.04892445,-0.09078068,-0.23879999,0.123389915,-0.15042599,0.092412956,-0.11306857,0.20964953,0.26838744,0.2631861,0.13753396,0.1838327,0.2090507,-0.19936009,0.2442088,-0.24125187,-0.15819687,-0.2637186,0.16298975,-0.14432828,0.0029296416,0.26513517
0.032342263,-0.19795674,0.11044233,-0.22762828,0.24261267,0.2050856,0.24281752,0.059667636,-0.18966956,-0.09623723,-0.02896992,-0.23620597,0.0040481137,-0.15920408,-0.026167456,-0.21247323,0.1598771,0.15542682,0.037623886,-0.21510613,0.2548187,0.20810476,0.09303848,0.25529808,-0.15868866,-0.18894713,0.14603183,-0.2228451,0.16650224,0.17235845
-0.0053774216,-0.0042241463,-0.08498712,-0.23167726,-0.27446315,0.08843069,-0.14688239,-0.17459464,0.19002001,0.061233755,-0.2656313,-0.1837643,0.17799737,-0.2245288,0.23237109,-0.07396544,0.10204844,-0.08561718,-0.056402322,0.17316753,-0.04176055,0.046440244,-0.14191028,0.25011894,0.16704096,0.108316034,0.10511775,0.044355854,0.050539125,0.0734547
-0.23915716,0.038924113,-0.21236283,-0.19431598,-0.18630783,0.2028166,-0.012317151,0.04325262,0.036930185,-0.043978535,-0.15728082,0.024806589,-0.10479276,-0.020772666,0.11662897,-0.1399472,-0.060185205,-0.12568916,-0.21977675,0.22151367,0.03378491,-0.23845908,-0.09542006,-0.027432078,0.0627175,0.016222965,0.11604446,0.17729634,-0.085101426,0.2159417
0.11481827,0.015662197,0.15099786,-0.030951584,0.15677159,-0.04527706,0.088217184,-0.063067324,-0.1713975,0.016988559,-0.19207075,-0.05718453,0.019169718,-0.1008237,0.074980006,0.06435401,0.11765853,-0.16091195,-0.10114245,0.0097107375,-0.23040357,0.1686066,-0.07797556,-0.046825185,0.07102331,0.18479373,-0.12026502,0.08973626,-0.094875485,0.15220194
-0.25453708,0.06892111,0.20412627,0.1043055,0.004251906,0.1360747,0.17471516,0.23011293,0.118175104,0.04763076,0.08293499,-0.064647794,0.018440744,0.14503725,-0.2581212,-0.07031794,-0.0864204,0.12457168,0.16973886,-0.19920762,-0.16889612,-0.142123,0.065299116,-0.17112774,-0.094761625,-0.24504396,-0.23654835,0.07646937,-0.16926482,0.2394747
