0.21716876,-0.23835017,0.014618605,-0.39009959,-0.108153895,-0.10243876,0.2604013,0.22590248,0.1210987,-0.008274393,0.22987923,0.041650265,0.08368408,-0.29527056,0.030257089,0.3258166,0.345456,0.24637982,0.08954372,-0.10011445,0.35530302,-0.37888095,-0.3171143,-0.07257847,0.23253383,-0.38405162,0.19938374,-0.3782671,0.35285226,0.25872824,-0.38241464,0.17639293,-0.28661907,0.024261555,-0.09988689,0.15943141,0.28599516,0.035848644,0.11696555,0.079461776,0.25222677,0.0696646,0.24795301,-0.046502743,0.20676155,0.15162198,0.07989303,-0.04150221,0.15832564,-0.042754397,-0.14277391,-0.25051573,-0.2230473,0.21158929,-0.078668684,0.19643712,0.35505566,0.053796407,-0.21182978,0.18324555
-0.020488743,-0.03538681,-0.1734609,-0.10071565,0.26653066,0.20446251,0.21825191,0.19867069,-0.16532393,-0.006558723,0.14221449,-0.15226145,0.027064618,0.027060527,0.18533447,-0.30662462,0.1046943,-0.14906928,0.07386712,-0.25225437,0.11926407,-0.17922162,-0.10207144,0.22321479,0.21468744,0.19734883,0.21114475,-0.07996703,0.12012949,-0.11548178,0.20284542,-0.30303684,-0.11715886,-0.23781037,-0.19243012,0.19812095,-0.19732223,0.08599273,-0.17674567,-0.10893665,0.3565201,-0.052946188,0.13975343,0.2714112,0.22388493,0.1168254,-0.04499275,0.30853093,0.17888202,0.19241232,0.20931736,-0.046368152,-0.20172961,-0.0727426,-0.056967445,-0.12214737,-0.10005743,0.030487044,-0.23059244,0.12919688
-0.28053117,-0.2814509,-0.024433121,-0.07920373,0.27657992,-0.1510189,0.26122275,0.016996333,0.14513302,0.08168419,-0.06805782,-0.19865301,-0.31763598,0.109412394,-0.20850374,-0.16721974,0.2430404,-0.302183,0.13674656,0.13110739,0.07138066,-0.12878147,-0.020889644,0.23090054,-0.3695901,0.15008052,0.15786588,-0.068505734,0.23524348,0.35147622,-0.20732035,-0.119210154,-0.042320147,-0.04604861,-0.12024607,-0.30161268,0.09836717,-0.19958757,-0.33558625,-0.25928771,0.16596243,-0.11518022,-0.011818595,0.12307548,0.13584311,0.079607256,0.28425974,0.079859465,-0.28505796,-0.08776876,0.2974565,0.1972781,-0.03820171,-0.1283585,0.18762246,-0.06960941,0.21210606,-0.1676753,-0.124739796,-0.28324136
0.28989705,0.02575606,0.099607125,-0.14361112,0.12778568,0.025233334,-0.25933054,-0.1328099,0.1295967,0.3601688,0.24923386,0.16288996,0.25348276,0.21174923,0.18710662,-0.21281065,-0.0141790295,-0.24422711,0.20034538,-0.06876602,-0.24353363,-0.21905386,-0.15097903,-0.04295956,-0.07874466,0.29972047,0.024479443,-0.005013703,0.14171645,0.23486789,0.23855874,0.12915675,0.30389377,0.22526966,0.28290188,0.2801537,-0.16801973,0.2835268,-0.26745552,0.0025535885,0.19812322,-0.003902844,-0.090929225,0.09005414,0.027749937,0.07923463,-0.12909593,0.21272957,-0.22001526,-0.10806971,0.2454502,-0.16638303,0.25126132,0.1548279,-0.2768578,0.004938487,0.0034419342,-0.12829787,0.41289446,0.15654601
