0.1265661,-0.27222115,0.15510835,-0.16585238,0.13104603,-0.08572778,0.15402275,0.15600717,0.1434162,0.037429366,0.2562131,0.053430256,-0.21086536,0.053807646,0.118445605,-0.27006716,-0.12782526,-0.06355541,-0.03471609,0.122466914,-0.11944098,-0.15458521,0.10532915,-0.16321012,-0.050560668,0.26682362,-0.23979367,-0.18589851,0.066521846,0.11467256
0.20511638,0.1365903,0.16107528,-0.13903521,0.014293818,0.24598302,-0.041671336,-0.112094395,-0.026719417,-0.010722537,0.27625442,0.1705421,0.14399314,-0.013517801,0.05226154,-0.23100196,-0.07267685,0.1553884,-0.22564057,-0.1388442,0.085906655,-0.07574834,-0.1404196,-0.1559878,0.2916467,-0.09893494,-0.24369764,-0.11496568,0.03608072,-0.16864382
0.14172731,0.050430015,0.005579974,0.25290152,0.19174878,-0.1525609,0.17855288,-0.05440344,0.23930398,-0.09140305,0.25197256,0.027815241,0.07692532,-0.15952858,-0.016598633,-0.22602344,0.034705717,-0.22329539,-0.15979704,-0.21536142,-0.1846117,0.06368393,-0.12759905,-0.03328897,0.09840718,0.2883476,-0.07769546,0.015114909,-0.19627818,-0.20786998
0.22176945,-0.1922245,0.01749331,-0.04046492,0.15882176,0.15728708,-0.09560995,-0.23588143,0.30625197,0.089708425,-0.19488202,-0.0140884,-0.10796054,-0.07584938,-0.12999074,0.1294954,-0.19372784,-0.28387508,0.19406764,0.22870551,0.063687526,-0.14519878,-0.24844287,-0.0061237183,0.3322262,0.2061401,0.09848055,-0.14381294,-0.19986364,-0.07560197
-0.13479675,0.015342855,0.12686343,-0.15556058,0.114332736,0.033044267,0.32945308,0.14900704,0.16828243,0.079492845,0.23809491,-0.021665301,0.18372668,0.16005784,-0.2431352,-0.123973764,-0.009471726,-0.040822394,-0.100236334,0.23248848,0.052670058,-0.099902004,-0.07717714,-0.22820474,0.13323575,0.1703247,-0.18284322,0.10154724,-0.01488151,0.10040268
0.10852505,0.13278,-0.065424256,0.08409842,-0.082512654,0.28389764,-0.121517956,-0.15080854,-0.174248,0.13643335,-0.024403123,0.052849054,0.2911993,-0.1333797,-0.09149736,-0.041222036,0.29754516,-0.27348626,0.04599112,-0.13241863,0.26666486,0.18764067,-0.17011514,-0.028911797,-0.026677769,-0.027966795,-0.18114263,-0.17582406,-0.07049164,0.018899443
0.11887433,0.019348735,-0.04460828,0.058848426,-0.06970216,-0.23440585,-0.20033193,0.1826886,0.08311441,-0.07258932,0.02981723,-0.17571634,0.16191226,0.09241465,0.079110794,-0.050915033,0.01597358,0.04977529,0.043043405,0.06502074,0.23777549,-0.10575942,0.18488342,-0.073933624,-0.17144437,-0.14179455,-0.12603228,-0.18443966,0.1971743,0.13655321
0.0035110116,-0.09711826,0.07564116,-0.04180762,0.072982475,0.18515337,-0.17552456,0.050181463,0.0357293,-0.12328437,-0.2336531,0.20731965,0.09516015,0.29512545,0.021917367,0.15045416,-0.13827956,0.22679152,0.1787214,-0.10301916,0.2816356,-0.054839764,-0.052285865,0.21958944,0.1781297,0.12929516,-0.07420943,-0.23254517,0.2664252,0.075903796
0.21576722,0.20939182,0.16332749,-0.17135464,0.024533402,-0.08951347,0.10538514,-0.19382113,0.07367871,0.12763634,-0.06730948,0.07511063,0.11117974,-0.012180648,-0.0169925,0.17114061,-0.101423524,-0.048170812,0.21568216,0.3073636,0.20891315,0.015064588,0.28089052,-0.20302056,0.083084516,-0.010816095,0.2860176,0.14066371,0.103208914,-0.087671295
-0.09291778,-0.06696249,-0.01897099,0.16181923,-0.0936313,-0.06777074,0.14457439,0.08000211,0.15547633,-0.13862921,-0.26963162,0.08289843,0.22132556,-0.10579544,0.11123026,0.19199887,0.27499858,-0.21165845,-0.05892946,0.056402013,-0.10694221,0.11339602,0.16967611,0.3012152,0.2015448,-0.018783376,0.16727743,-0.1568043,-0.072193325,0.2172064
0.15900579,0.19634998,-0.013399164,0.2824354,0.095001735,0.140523,0.11505873,0.14656375,0.18559451,0.16885157,-0.14704046,-0.16024151,-0.11727974,-0.117834784,0.2069119,0.0807472,-0.023518328,0.19726978,-0.12613331,-0.21481343,0.07662255,-0.14522198,-0.14469935,-0.16807261,0.13593516,0.28021023,-0.19809502,0.18728763,-0.114814006,-0.07227975
-0.041338857,-0.11121449,0.20279194,0.043355145,0.22106814,0.14925331,0.26826698,0.11126357,0.11386536,0.08334762,0.17702241,-0.1544446,0.255101,0.07892508,0.0700505,-0.021990994,0.2382282,-0.010782959,0.2392855,0.00037128647,0.098433614,0.11010321,0.24936669,-0.13470641,-0.17632884,-0.18456759,0.26315767,-0.22466592,-0.092858106,0.08379022
-0.24777535,0.057174314,-0.1921234,0.22408518,0.065764934,0.16554685,-0.12903433,0.06960357,0.036121126,0.00062537147,0.07408657,0.18371585,-0.27461153,0.2455006,-0.2154678,0.03402109,-0.08394979,0.26462734,0.19391952,0.22521575,-0.23082094,0.10644524,-0.0021530222,-0.26895034,-0.15341868,0.2766147,-0.035774365,-0.085651465,-0.014450116,0.20365459
-0.16319144,0.08085717,0.06049702,-0.24744435,-0.048547838,-0.23037629,0.30669323,0.07391405,0.10174168,0.2501698,-0.03677349,0.12049142,-0.18909205,0.05361909,-0.17841266,0.058847,0.3173966,-0.023701424,-0.0026460567,0.2429013,0.24961889,0.24459977,0.12967853,-0.09907934,0.09840761,0.03089448,-0.08036971,-0.23530045,0.1405768,-0.0661075
0.16651183,-0.053961705,-0.06557749,-0.044963934,0.14841646,0.20690043,-0.07678055,-0.17362022,-0.09732096,-0.2082239,0.062826015,-0.22843976,-0.088597305,-0.22030601,0.19003183,-0.13148752,0.16483772,0.1625731,-0.1275821,-0.24352676,-0.12678427,-0.09736379,0.24154712,-0.013765741,-0.14356571,-0.0791224,0.19408348,-0.07983305,0.2645308,0.0730753
-0.13151084,0.2783087,0.018915286,-0.16746308,-0.21997842,-0.15548177,0.05257033,-0.07767426,-0.078736305,0.23842034,-0.096140824,0.16369928,-0.053430058,-0.15152532,-0.061177813,0.19228248,-0.19938897,0.117994025,0.23583643,0.12848802,0.25013706,-0.03569368,-0.008056188,-0.03904119,-0.1862373,0.02254675,-0.09471289,0.18155017,-0.12977266,0.2684155
-0.08022889,0.06866694,-0.03603074,0.11197726,0.14104533,0.008806139,-0.07092449,0.2080885,-0.0162509,-0.117556915,0.030942222,-0.08192729,-0.16809401,0.15607873,-0.24614106,-0.18371804,0.035070743,0.020378228,-0.06723684,0.097321,-0.2577765,-0.25894958,-0.18863502,0.13535412,0.22460355,0.29682204,-0.13881177,-0.20235877,0.06894516,-0.18907821
0.13265784,-0.06100556,-0.20930865,0.06372163,0.1475485,0.055755842,-0.109629184,0.012206023,0.157654,-0.13860323,-0.14863545,-0.16613887,0.18560912,-0.18131597,0.036837935,-0.041915532,-0.035859775,-0.054026242,-0.24062988,0.1682877,-0.079457976,0.07732339,-0.020293927,0.1355849,0.23798603,-0.0041561313,0.18344744,-0.06334485,-0.20846835,-0.07714748
-0.11804965,-0.08196815,0.06339032,-0.14649333,0.20881213,0.15031183,0.07017614,-0.08760555,-0.034830507,-0.28947943,-0.20664662,-0.017391704,0.15825921,-0.12708691,0.20841792,-0.21402206,0.15582111,-0.13870814,-0.18122932,0.20126727,0.07093708,0.18361983,-0.074737586,0.18302752,0.049423125,-0.18251833,-0.20011814,-0.10282981,-0.15809572,-0.019823171
0.10466951,-0.121857226,0.013557148,0.02140637,-0.18941037,-0.2040754,-0.17727435,0.12950417,-0.036279555,-0.14619495,0.082033314,-0.1976178,-0.2660353,-0.02822599,-0.108387575,0.07873005,-0.21208388,-0.07018055,0.035885278,-0.18521121,-0.27013424,0.026328247,0.060574505,-0.13180146,0.31925914,-0.14133264,0.14309111,-0.023757014,0.11186034,0.15344377
-0.17789632,-0.003202623,-0.093513064,0.10957493,-0.058457103,-0.119266436,0.127891,0.0019620613,0.18210822,-0.24472873,-0.18306105,-0.21207242,0.080120206,0.01500175,0.0773798,-0.1370099,0.035911705,-0.017915761,0.07299779,-0.052555915,-0.04570336,0.056883793,-0.090008415,0.18779148,-0.17618789,0.11182832,-0.2736886,-0.16606914,-0.14178267,-0.14812629
-0.117447525,-0.1857775,0.14517139,-0.078037806,0.035156824,-0.211768,-0.08480242,0.024248628,0.0073693655,-0.19911794,-0.22563992,0.13682394,-0.11446111,-0.055516392,0.114351675,-0.015519458,-0.07961174,-0.082063116,0.21413341,-0.19993566,-0.0948804,0.02968563,-0.07951302,-0.046924073,0.24180281,0.16118641,-0.046484213,-0.16775222,0.15531345,0.033077672
-0.28002396,0.23030408,-0.15618445,0.15102613,-0.2856931,0.15086566,0.2502132,0.10229308,0.17362626,-0.16148111,0.13586023,-0.03417926,-0.026400564,-0.120338395,0.19171557,-0.047121435,-0.17949273,-0.16994035,0.01248474,-0.036162425,0.03848247,0.2627127,-0.020394413,0.21483168,0.18979827,-0.109458104,0.049829323,0.024929462,-0.1977356,-0.17356601
-0.12914355,0.20982672,0.058358796,-0.19766499,0.0984411,0.08005812,-0.23381695,-0.107395664,-0.11486247,0.15781863,-0.00021543514,0.1664963,-0.055217993,-0.07402479,-0.040257845,0.15420324,-0.16430792,0.19982691,0.11559872,0.04349455,-0.16380015,0.062394887,0.2653966,-0.15528628,0.14221478,-0.19500092,0.189397,0.22902142,0.08884991,-0.12068647
0.057257567,-0.06348615,0.09734753,0.073445655,0.011342856,0.12103734,-0.15206584,0.14564562,-0.22060521,0.1364536,0.017695084,-0.14734524,0.16450752,-0.15540177,-0.076211005,0.18651257,0.093882516,0.10680468,0.011562184,-0.119661465,-0.09563038,-0.08276705,-0.050005153,0.15045995,0.11668083,-0.090829946,-0.16965412,-0.1169063,0.034060825,0.13314924
-0.13993098,0.0948504,-0.23381168,0.24779204,0.16316777,-0.06811739,-0.18542951,0.12650567,0.047309615,-0.01737177,0.14518495,-0.08161467,0.20805767,-0.22405662,-0.1524836,0.11192632,-0.2652412,-0.19160095,-0.0682983,-0.13892244,-0.07554172,-0.20631368,-0.0915764,0.048837952,0.28885674,0.17778769,0.1705025,0.07184792,0.15874162,0.12426899
0.10806273,-0.18513393,-0.04289368,-0.16511069,0.1707354,-0.11324712,-0.22360261,0.12485583,-0.10252237,-0.14461157,-0.111435235,-0.03414895,-0.22435424,-0.006784398,0.14691314,-0.031549502,0.06147676,-0.12334965,-0.25004047,0.17407528,-0.054262694,-0.095765755,0.041771,-0.22020091,0.1737304,0.26906773,-0.20109288,0.24761574,-0.05959323,-0.27335143
-0.05396584,-0.039766323,0.02593787,0.03625223,-0.19189377,-0.14302193,-0.19787975,0.17170571,-0.20747802,-0.1904529,-0.09227772,0.23624447,-0.151055,-0.029588597,0.027181922,0.20478414,-0.18059613,0.17234825,0.22736458,-0.2135835,0.059404418,0.031199714,0.14091016,-0.07395095,0.20983312,0.025944302,-0.077400014,-0.10529972,0.041946128,-0.116735786
0.22308336,-0.046203103,-0.094067946,-0.013619187,0.15071541,-0.037701856,0.08354121,0.10138413,-0.025838451,0.15955995,0.07146098,-0.24837595,-0.015760496,0.09847192,0.06992824,0.25233793,0.15761256,-0.1453412,0.13605762,0.09893061,-0.02697314,0.01355636,-0.09841516,0.17416675,-0.04617092,-0.177255,0.12188657,-0.16396108,-0.28251112,0.058052808
-0.011623492,0.0013293916,0.22058712,-0.12841833,0.25358462,0.09570731,-0.1091436,-0.14320745,0.10323926,-0.043686032,0.20787054,0.20123917,-0.19710721,0.09335834,-0.14978519,0.22775932,0.047271274,-0.05587648,0.23966047,-0.2040083,-0.08455194,-0.11919741,-0.09067472,0.27131695,-0.026768405,-0.15260686,0.020729702,0.15097255,-0.014257109,0.10827361
-0.1204391,-0.15155336,-0.08334855,-0.041290697,0.17553426,0.22094761,0.20961969,0.12226972,0.10138137,0.03333618,0.06867742,0.25192875,-0.14163123,0.23134857,-0.269418,0.17759801,0.079961516,0.20602642,-0.24495295,-0.06754578,0.08574641,-0.16160151,-0.10489173,-0.019267399,0.008770146,0.07697499,-0.08762488,-0.12566,0.058586407,-0.01135375
-0.25926897,0.17912857,0.24790293,-0.17257853,0.026760785,-0.06660604,0.041542456,0.25813037,0.05445,0.17202811,0.010970947,-0.10689798,0.1727002,0.15558581,0.039264407,0.21718296,-0.13465352,0.077492535,0.17568435,-0.091019,-0.06008658,0.114405565,0.055648915,0.20672171,-0.17166743,0.2217658,0.1558686,-0.025771793,0.09028203,0.0479037
0.32721326,-0.20123574,-0.2147237,0.106749825,0.15430322,0.047270562,-0.045941517,0.12877767,0.18894131,0.17413294,0.14827056,-0.17546205,-0.05020619,0.27006978,0.08305862,0.01607769,0.049926415,-0.017611295,0.2108968,0.21646442,0.25292757,0.24091463,-0.059642017,-0.21188505,0.14685602,0.09491448,-0.2696557,-0.11931929,-0.1430287,-0.17886902
0.10839643,0.2946806,0.11826238,-0.2458752,-0.25950062,-0.1245138,-0.13048913,-0.05205719,0.06093711,-0.09611771,-0.039313663,-0.108887784,0.14589363,0.31048974,0.049344532,0.06631055,0.1616231,0.15538763,0.15053639,0.2523351,0.03853459,-0.0004005636,-0.109959714,-0.15916234,-0.075451694,-0.19026868,0.072090365,-0.2517448,-0.087935664,-0.095900185
-0.24493653,0.03767496,0.11831662,-0.08282014,-0.0022432134,0.050394427,0.09489682,-0.030572128,-0.29147866,0.18253508,0.058481418,0.020498477,0.06631444,0.3060629,0.14042465,0.006800802,-0.11867502,-0.098573096,-0.19107264,-0.09930358,-0.13658668,0.25786597,-0.18834893,0.009189971,0.027264452,0.042718682,-0.15465485,-0.00868525,-0.07300881,-0.10260408
-0.0034429717,0.239192,0.07573617,0.1523792,0.1696163,0.03943279,-0.011368743,-0.070921056,-0.2074615,0.29229212,0.032851852,-0.10029332,0.15728816,0.036979347,0.07986157,0.19437145,0.10830233,-0.0687179,-0.04196388,0.06969245,0.055381548,0.06533047,-0.1898553,-0.18247452,-0.12790465,-0.21764626,0.24862376,0.0812384,0.2328515,-0.19262585
0.0016748429,-0.1684649,0.19971226,0.24782887,-0.19333427,-0.13975249,-0.047380522,0.18482514,0.050289843,0.07108614,0.13178743,-0.15704909,-0.21919502,-0.11993618,-0.23467518,-0.107248165,-0.10619439,0.15915397,-0.0868611,-0.21645983,-0.036394075,-0.040392503,-0.1301702,0.18166563,0.021815602,0.21863808,0.14531936,0.09585333,-0.026796687,0.011929774
-0.16024451,-0.05612016,-0.1496798,0.28928238,-0.057804372,0.29341897,0.02977973,0.16101433,0.09924181,-0.099643216,-0.037912704,0.17548189,0.16188394,-0.16595414,0.1578432,-0.19695388,0.11905638,-0.08670961,-0.0503318,-0.039763305,0.17952532,0.08847063,-0.17170718,0.22838551,0.1719343,0.09156576,-0.10517369,-0.16536048,0.100554444,0.035215814
0.25617114,0.05921872,-0.07818046,-0.100643925,0.24405742,0.2711111,0.2057661,-0.09996191,0.025608849,0.14651102,0.28106883,-0.045199607,0.10148544,-0.14003424,0.050772104,-0.0143795805,0.034763128,-0.102104746,-0.1884964,-0.15508857,-0.085174024,-0.13943672,-0.27767667,-0.05486825,-0.15388933,-0.097555146,-0.1148175,0.1116056,0.062822424,0.11882358
-0.2896088,0.12656838,0.1763728,0.18297538,-0.00086579734,-0.0034611092,0.20874842,0.0339308,0.13888022,0.3059618,0.1854482,-0.028445559,-0.10129305,0.06020635,-0.19751638,-0.13101214,-0.006994923,-0.012159973,-0.070379235,0.33023775,0.30804098,0.26266643,0.08334206,-0.11106168,-0.18286185,-0.027656555,0.3240324,0.09839319,0.004067801,0.051646613
0.25804216,0.09015082,-0.13828905,0.23835336,0.13155372,0.03910965,0.061977606,0.23016983,0.20725046,0.20766948,-0.15809345,0.07958959,-0.11508956,0.17456616,-0.051386505,-0.06643807,-0.04833909,0.12606917,0.07163608,-0.1772632,-0.08228922,0.14005001,-0.2100151,-0.09003487,-0.13995191,0.056030996,0.17477526,0.17441955,0.20777567,0.18537253
-0.2014436,0.10229597,0.08827036,0.2007924,0.27314907,0.05399991,-0.13909306,-0.18296339,-0.062840745,-0.2666872,-0.1385021,-0.04734846,0.18645905,-0.07133003,0.11795939,0.10073869,0.12741081,-0.2364052,-0.22181456,-0.19423155,-0.039766844,-0.083174504,-0.031398892,-0.012088388,-0.050697282,0.21480024,0.124512695,-0.056090105,0.110816784,-0.13181716
-0.07042743,0.004729761,-0.058601856,-0.23017454,0.035801508,-0.113007195,0.010972662,-0.06868666,-0.15668483,0.19296025,-0.005273629,-0.0036675606,0.20919968,0.32096124,-0.2440271,0.15680535,-0.0012165963,-0.10048679,0.1814535,0.06829497,0.027794458,0.16240367,-0.104603305,-0.10276504,0.059200123,-0.0420226,0.32366875,-0.24487853,-0.10509567,0.15757994
0.10132234,-0.15825418,0.09800688,0.29853135,0.22426856,-0.18940736,0.18092097,-0.17469415,0.23836607,-0.20081566,0.23107357,0.2670963,0.20495914,0.29266748,0.21863876,-0.048692204,-0.0709732,0.05946049,0.21118732,0.07358097,0.19460125,0.10103568,0.2363841,-0.13715786,0.15373652,-0.20172077,0.22616707,0.06565552,0.120739296,0.06748308
-0.0065628802,-0.08357893,-0.1023431,0.14609565,0.1623009,0.15728167,-0.21657625,-0.23160984,0.002617554,0.19438462,-0.18675016,-0.19243358,-0.013666693,-0.04070772,-0.0039964626,-0.2530606,0.062489662,-0.12524977,0.23660703,-0.19230941,-0.103700474,0.1903729,0.2141712,0.13952644,0.15788244,0.2612021,-0.07827161,0.20725751,0.059098143,-0.019595945
-0.14058998,0.24913204,-0.08208942,-0.19622162,0.11171419,0.04486385,-0.04789404,-0.04114091,0.16478537,-0.14143883,0.015313484,-0.1854879,-0.17417893,-0.13390999,-0.13180941,0.15081887,-0.06602528,0.013458337,0.15904693,0.17310232,0.26854184,-0.08929335,0.17480393,-0.25339082,-0.22131918,0.02261802,0.047625504,-0.16075024,-0.049880143,0.055435024
-0.26579046,0.17959967,-0.16267395,-0.17837535,-0.2589284,-0.039125692,0.048234027,-0.055279218,-0.08868089,0.1951979,0.12080462,0.100744955,0.08202178,0.11107632,0.040080298,0.27736825,0.27759528,-0.18660466,0.09786203,0.16441749,0.28169572,0.23861058,0.23717035,-0.08042091,-0.105605006,0.09947476,0.07867765,0.031025307,0.13581298,0.031635
-0.13844536,0.17628676,-0.09088377,-0.01846417,0.07862412,0.10550684,0.09512876,0.22761527,0.14168999,-0.23416111,0.24967049,0.11144194,0.1989716,-0.088257626,-0.18044935,-0.13753004,-0.07084265,-0.20886078,-0.17739575,0.1257309,-0.022289986,0.19535823,-0.19650039,-0.13145202,0.0012927933,0.25879937,-0.07929347,-0.0012910032,-0.010866761,-0.034694023
0.14748797,0.110062,0.07052361,0.16616558,0.010661143,-0.16805087,0.21986198,0.058636904,0.106592074,-0.16259018,0.17543364,-0.04578294,0.24719371,0.119958885,0.08671446,0.2601979,0.29907575,0.1640233,0.09066733,0.29861346,-0.1892291,-0.11545154,-0.18871285,0.17758453,-0.23606834,-0.12630385,0.27499762,0.02328339,-0.08337427,-0.17798035
0.13910443,-0.20826724,-0.20916249,0.2647902,0.11597583,0.0104533015,-0.15823561,0.021713702,-0.03955899,0.03720359,0.13860826,0.043560516,0.20599881,-0.103613354,0.026082097,-0.1215448,-0.15252617,-0.2012,-0.02560778,0.13521867,0.05995706,-0.045751028,0.14107114,-0.10050948,-0.07999868,0.19322415,0.113857575,-0.12704189,0.14038944,-0.07989835
-0.033759266,0.22227225,0.25630674,-0.15550788,0.06459364,-0.02776437,0.26531503,0.12347419,0.041246623,-0.08650575,-0.26334086,0.06963863,0.049773842,0.03609493,0.16359323,-0.043749735,-0.018621065,-0.08216348,0.18139592,0.13386504,0.2215537,-0.05366203,0.107352145,-0.034809712,0.021221684,-0.18437435,0.0768098,-0.0056470917,-0.21558766,-0.018615743
0.19572589,0.16396847,-0.21289065,-0.091324374,0.14085308,-0.011590838,-0.08020409,0.089900166,-0.12577233,-0.20639738,-0.11629996,0.23520002,0.18792032,-0.008080116,0.025587844,-0.0025153952,-0.1783825,-0.14429791,0.0011794968,0.044756282,-0.2146771,0.24453425,-0.2010677,-0.056094963,-0.041183025,0.2791452,-0.2697886,0.23544931,0.101875,-0.03107526
0.092575826,0.16959603,-0.092388906,0.05757104,-0.19434263,0.16298848,0.096204124,-0.07751028,0.030816128,0.2922259,0.10428864,-0.24542883,0.27158645,0.31080487,-0.07865843,0.24203964,0.235585,-0.10013092,0.26049593,0.11134102,0.093770705,0.23215514,-0.04748484,0.15978132,-0.28133252,0.08247651,-0.07897077,0.04093703,-0.003938149,0.16879824
-0.024140052,-0.02488852,0.2796678,0.016152764,0.22579421,0.15668717,-0.0018724257,0.051228207,0.18716702,0.23237392,-0.07800306,0.13425578,-0.18436311,-0.13577077,-0.114572406,-0.17285435,-0.12507361,0.14600967,-0.2087626,0.010047456,-0.08534336,0.30167496,0.24670611,0.10082065,0.101545304,0.18723877,0.23968078,-0.21494225,0.2140439,0.2717979
0.1584488,-0.14164357,0.00084225135,-0.067536265,0.06899988,0.06893023,-0.12163604,0.20480102,0.031617284,-0.07449033,-0.24342823,0.11441108,-0.12178569,0.15219481,-0.107026316,0.23562156,0.2947375,0.28754848,0.16382779,0.2096534,0.23570378,-0.15661462,0.25978407,-0.19457033,-0.14062496,-0.26046085,0.19559534,-0.1483408,0.0021812539,0.2915582
0.028279506,-0.17407592,0.13588004,-0.21952945,0.22002141,0.18635137,0.2698835,0.07562651,-0.21131054,-0.07766547,-0.03715562,-0.2439861,0.045793258,-0.08486855,-0.017876588,-0.18022297,0.19629651,0.18349025,0.06562087,-0.17864521,0.28435844,0.26154578,0.112209454,0.30633894,-0.14944229,-0.19414812,0.19264172,-0.23017605,0.15967645,0.19800277
0.022221109,0.030989125,-0.048145022,-0.2601987,-0.30870622,0.0693321,-0.10277783,-0.1466641,0.15521565,0.09556849,-0.29836628,-0.18687919,0.21058999,-0.16751999,0.22183509,-0.0321708,0.16009602,-0.056231797,-0.018452596,0.21850088,0.017108206,0.10077308,-0.11002506,0.27687976,0.12743545,0.07574987,0.14021544,0.044788007,0.02311053,0.069817
-0.18439251,0.016566541,-0.2366303,-0.14585309,-0.14950886,0.24006766,-0.036252905,0.016121188,0.07108905,-0.07739798,-0.15280731,0.053040355,-0.06615532,0.019777773,0.08920389,-0.16973211,-0.0069086608,-0.14305116,-0.23346584,0.22771071,0.025379913,-0.21636887,-0.11563219,-0.03265547,0.114196144,0.051058367,0.13817029,0.221502,-0.0919054,0.18248089
0.10373415,0.051599972,0.19241329,-0.07023484,0.120272934,-0.07660151,0.12891895,-0.035610057,-0.20657583,0.058355715,-0.22797562,-0.08319115,0.055138383,-0.025498416,0.097066216,0.109918416,0.15838955,-0.10249668,-0.058345005,0.051860522,-0.18918262,0.22625735,-0.039814107,0.012490167,0.033347607,0.15661736,-0.06913947,0.08167478,-0.119040646,0.18805195
-0.21000427,0.09245527,0.22992772,0.086095184,-0.013056324,0.16603072,0.19207045,0.24591538,0.09987668,0.06909298,0.06078984,-0.06378568,0.040313736,0.1869009,-0.27548128,-0.044174045,-0.039013017,0.12571009,0.19655436,-0.16631687,-0.11475892,-0.10103542,0.057644557,-0.17427619,-0.11098786,-0.25968364,-0.21306923,0.09075414,-0.18672958,0.22069272
